{
  "vocab": {
    "218": "sqrt",
    "193": "ray",
    "346": "mathcal",
    "205": "int",
    "207": "ve",
    "944": "sqsubseteq",
    "740": "Ġ?",
    "663": "acu",
    "1056": "biggm",
    "66": "a",
    "746": "dotsb",
    "1012": "ltimes",
    "39": "F",
    "83": "r",
    "523": "sh",
    "975": "Huge",
    "997": "ensure",
    "603": "csc",
    "565": "neg",
    "421": "circ",
    "814": "hfil",
    "1106": "Ġ\\^",
    "623": "yset",
    "874": "bigsqcup",
    "45": "L",
    "323": "ex",
    "576": "Re",
    "439": "star",
    "1017": "thde",
    "450": "bra",
    "264": "gin",
    "397": "widetilde",
    "87": "v",
    "441": "frak",
    "1062": "fork",
    "588": "Lo",
    "25": "8",
    "805": "prec",
    "186": "ambda",
    "707": "stru",
    "1133": "textmd",
    "289": "Phi",
    "44": "K",
    "303": "operatorname",
    "688": "overbrace",
    "170": "ot",
    "1167": "scshape",
    "372": "hbar",
    "375": "\\}",
    "902": "medskip",
    "1110": "igarrow",
    "934": "Bar",
    "385": "prod",
    "468": "propto",
    "716": "sk",
    "192": "Ġz",
    "301": "operato",
    "104": "Ġ\\",
    "1064": "newline",
    "58": "Y",
    "1065": "negthick",
    "488": "or",
    "548": "hline",
    "942": "rightrightarrow",
    "1162": "special",
    "1023": "smallint",
    "391": "displaystyle",
    "198": "cal",
    "1086": "dddot",
    "422": "re",
    "1006": "dig",
    "451": "Bigl",
    "775": "¿½",
    "743": "cdotp",
    "751": "sl",
    "748": "fl",
    "592": "bigoplus",
    "683": "mathop",
    "620": "Longrightarrow",
    "582": "sup",
    "137": "in",
    "501": "cong",
    "221": "gamma",
    "352": "ger",
    "208": "ng",
    "408": "geq",
    "228": "Ġ[",
    "290": "ap",
    "477": "om",
    "307": "varphi",
    "176": "prime",
    "545": "phanto",
    "75": "j",
    "324": "pa",
    "127": "th",
    "387": "perp",
    "152": "Ġr",
    "210": "ĠL",
    "820": "Ġpt",
    "558": "bullet",
    "546": "phantom",
    "442": "mathfrak",
    "325": "st",
    "898": "LAR",
    "203": "rt",
    "102": "Ġ}",
    "429": "sta",
    "634": "under",
    "968": "blebarwedge",
    "69": "d",
    "633": "dash",
    "184": "amma",
    "728": "ill",
    "318": "chi",
    "266": "tau",
    "1142": "underbar",
    "1169": "uppercase",
    "138": "ph",
    "472": "bigr",
    "246": "ho",
    "244": "quad",
    "1": "[BOS]",
    "1108": "Ġ15",
    "1168": "noindent",
    "91": "z",
    "295": "sin",
    "63": "^",
    "536": "scriptsize",
    "750": "flat",
    "618": "bre",
    "922": "corner",
    "870": "natural",
    "509": "Rightarrow",
    "1047": "inde",
    "230": "mathbf",
    "197": "Ġy",
    "41": "H",
    "340": "dag",
    "285": "ĠU",
    "638": "Bo",
    "516": "paralle",
    "278": "fty",
    "672": "thin",
    "1174": "offinterlineskip",
    "321": "overline",
    "167": "da",
    "433": "op",
    "139": "Ġd",
    "133": "math",
    "128": "Ġx",
    "130": "igh",
    "676": "backslash",
    "718": "rVert",
    "547": "exi",
    "570": "jmath",
    "604": "eph",
    "168": "ĠA",
    "1036": "ag",
    "326": "pro",
    "215": "Ġu",
    "1080": "23",
    "1121": "hoice",
    "248": "hi",
    "1151": "root",
    "904": "gets",
    "316": "rightarrow",
    "132": "righ",
    "692": "triangleq",
    "196": "ĠT",
    "1011": "jo",
    "403": "tex",
    "540": "overrightarrow",
    "945": "succeq",
    "925": "mathope",
    "605": "aleph",
    "908": "rightharpoondown",
    "828": "cd",
    "223": "sigma",
    "736": "Vdash",
    "1130": "mathbin",
    "281": "xi",
    "460": "forall",
    "690": "rightharpoonup",
    "148": "Ġ3",
    "1119": "vearrow",
    "107": "Ġ2",
    "879": "tie",
    "300": "rato",
    "354": "ldots",
    "585": "dim",
    "1049": "pitch",
    "787": "smallsetminus",
    "767": "enskip",
    "514": "arctan",
    "1152": "romannu",
    "982": "pprox",
    "626": "emptyset",
    "804": "det",
    "614": "li",
    "962": "allo",
    "897": "GE",
    "1128": "expa",
    "698": "thing",
    "288": "ge",
    "360": "style",
    "590": "pmod",
    "236": "psilon",
    "842": "overleftrightarrow",
    "92": "{",
    "700": "doteq",
    "757": "mo",
    "271": "Ġo",
    "1001": "lsep",
    "907": "smash",
    "379": "Pi",
    "34": "A",
    "602": "\\,",
    "195": "ĠM",
    "654": "te",
    "950": "rightleftarrows",
    "258": "ĠX",
    "730": "\\:",
    "846": "lement",
    "542": "Biggl",
    "251": "la",
    "503": "mbe",
    "871": "gt",
    "587": "supset",
    "378": "approx",
    "369": "mathb",
    "868": "diamondsuit",
    "232": "ĠP",
    "919": "preceq",
    "337": "kappa",
    "875": "thicksim",
    "795": "tharpoons",
    "971": "wbreak",
    "166": "alpha",
    "981": "lse",
    "67": "b",
    "686": "leqslant",
    "494": "flo",
    "95": "~",
    "880": "nullde",
    "727": "dotsc",
    "117": "frac",
    "485": "angle",
    "1087": "erline",
    "691": "bigotimes",
    "957": "min",
    "786": "nds",
    "756": "ls",
    "847": "therefore",
    "420": "ci",
    "286": "row",
    "911": "nrightarrow",
    "737": "bigvee",
    "599": "ngleftrightarrow",
    "953": "ak",
    "43": "J",
    "1154": "index",
    "106": "Ġ^",
    "412": "unde",
    "89": "x",
    "822": "searrow",
    "909": "Diamond",
    "816": "frow",
    "549": "sts",
    "328": "iv",
    "724": "skip",
    "935": "Ti",
    "996": "updownarrow",
    "299": "rna",
    "62": "]",
    "219": "theta",
    "388": "ystyle",
    "185": "bda",
    "1078": "diagup",
    "158": "de",
    "332": "ln",
    "695": "null",
    "927": "lose",
    "98": "ï",
    "1112": "meral",
    "829": "ere",
    "1018": "inrel",
    "154": "Ġc",
    "747": "lim",
    "852": "bigm",
    "334": "ll",
    "479": "\\|",
    "963": "side",
    "54": "U",
    "646": "otnot",
    "666": "eil",
    "817": "Ġ\\*",
    "165": "Ġl",
    "708": "strut",
    "115": "Ġ,",
    "940": "xleftarrow",
    "273": "Ġ*",
    "651": "es",
    "701": "Ġ\\_",
    "272": "rangle",
    "124": "al",
    "773": "squ",
    "1166": "expandafter",
    "774": "vline",
    "459": "rall",
    "480": "ddot",
    "1022": "notag",
    "794": "textup",
    "456": "ngrightarrow",
    "443": "mp",
    "1157": "everymath",
    "241": "at",
    "726": "Ġ\\/",
    "224": "ga",
    "311": "Ġ\\!",
    "657": "implies",
    "827": "SS",
    "853": "triangleright",
    "350": "bol",
    "270": "ĠI",
    "1031": "framebox",
    "920": "gtrsim",
    "541": "downarrow",
    "765": "llap",
    "884": "bowtie",
    "110": "Ġ1",
    "222": "Ġ]",
    "693": "Large",
    "658": "\\;",
    "1150": "thickap",
    "660": "footnotesize",
    "3": "!",
    "858": "cance",
    "712": "amond",
    "662": "up",
    "386": "per",
    "455": "subset",
    "992": "substack",
    "505": "nonumbe",
    "362": "Sigma",
    "23": "6",
    "717": "diamond",
    "1115": "def",
    "689": "nup",
    "1063": "cur",
    "766": "thinspace",
    "1029": "gimel",
    "249": "to",
    "845": "twoheadrightarrow",
    "551": "Biggr",
    "826": "Down",
    "577": "iint",
    "327": "qquad",
    "1101": "spe",
    "365": "sim",
    "113": "Ġ-",
    "619": "textsf",
    "453": "sf",
    "31": ">",
    "635": "slant",
    "351": "Ġ<",
    "364": "wide",
    "526": "varrho",
    "682": "Longleftrightarrow",
    "1096": "nRightarrow",
    "1153": "mathchoice",
    "946": "Tilde",
    "393": "simeq",
    "595": "coth",
    "556": "iota",
    "16": "/",
    "1158": "lyeq",
    "1171": "thickapprox",
    "1164": "rightsquigarrow",
    "803": "rtimes",
    "438": "textstyle",
    "262": "omega",
    "608": "small",
    "575": "setminus",
    "1041": "nwarrow",
    "823": "bumpe",
    "134": "Ġn",
    "1039": "huge",
    "771": "nor",
    "57": "X",
    "776": "ï¿½",
    "539": "sla",
    "395": "wed",
    "5": "#",
    "933": "lefteqn",
    "382": "sp",
    "229": "ĠS",
    "687": "Ġ`",
    "900": "ts",
    "24": "7",
    "1085": "ckap",
    "800": "Ġ\\-",
    "640": "Ġ\"",
    "88": "w",
    "1021": "ointop",
    "449": "Bigr",
    "949": "rightrightarrows",
    "1076": "pitchfork",
    "591": "mod",
    "665": "longleftrightarrow",
    "699": "varnothing",
    "245": "Ġh",
    "32": "?",
    "1109": "mannu",
    "952": "Hat",
    "754": "sqcup",
    "331": "ĠO",
    "877": "bow",
    "655": "bigtriangle",
    "594": "bmod",
    "1160": "offinterline",
    "889": "ro",
    "341": "ĠY",
    "1020": "withde",
    "150": "Ġt",
    "624": "varpi",
    "500": "bot",
    "306": "line",
    "721": "ip",
    "564": "underbrace",
    "440": "not",
    "333": "Omega",
    "416": "rc",
    "6": "$",
    "355": "ell",
    "792": "mathor",
    "423": "ript",
    "120": "ta",
    "851": "longleftarrow",
    "1088": "ever",
    "202": "ĠR",
    "427": "rel",
    "103": "Ġ{",
    "938": "uge",
    "989": "varlim",
    "73": "h",
    "1089": "ij",
    "985": "rapprox",
    "298": "ope",
    "26": "9",
    "294": "times",
    "348": "Ġ>",
    "522": "brack",
    "191": "nu",
    "469": "Ġ'",
    "951": "AA",
    "1134": "scsh",
    "78": "m",
    "936": "lr",
    "616": "arge",
    "1122": "lax",
    "8": "'",
    "720": "protect",
    "345": "Ġ:",
    "335": "Ġ9",
    "250": "ĠE",
    "861": "Uparrow",
    "50": "Q",
    "954": "ble",
    "581": "atop",
    "1127": "biguplus",
    "574": "minus",
    "1016": "max",
    "808": "Ġ\\&",
    "35": "B",
    "90": "y",
    "534": "land",
    "837": "adrightarrow",
    "714": "Ġcm",
    "404": "text",
    "217": "sq",
    "55": "V",
    "384": "di",
    "1045": "led",
    "410": "eq",
    "862": "nat",
    "304": "tarrow",
    "753": "Ġ---",
    "1097": "nVdash",
    "435": "cosh",
    "40": "G",
    "275": "Delta",
    "1072": "varlimsup",
    "428": "neq",
    "10": ")",
    "819": "mpe",
    "407": "Theta",
    "1082": "\\-",
    "319": "ove",
    "741": "ngmapsto",
    "394": "ed",
    "119": "ma",
    "146": "Ġm",
    "1107": "Ġ10",
    "744": "geqslant",
    "615": "arp",
    "434": "us",
    "966": "bigodot",
    "415": "ast",
    "1173": "curvearrowright",
    "200": "ĠN",
    "1069": "uplus",
    "673": "ack",
    "1149": "preccur",
    "984": "rgroup",
    "1053": "llcorner",
    "125": "le",
    "903": "ndown",
    "347": "Psi",
    "778": "makebox",
    "836": "tit",
    "813": "ngleftarrow",
    "763": "mal",
    "544": "nto",
    "56": "W",
    "265": "begin",
    "367": "Ġ!",
    "1117": "rtmid",
    "140": "left",
    "1071": "---",
    "859": "thick",
    "821": "varpro",
    "27": ":",
    "738": "subsetneq",
    "696": "bigtriangleup",
    "647": "footnot",
    "784": "mathrel",
    "1144": "upperca",
    "297": "langle",
    "401": "boldsymbol",
    "282": "Ġ8",
    "671": "en",
    "643": "deg",
    "978": "fbox",
    "843": "Downarrow",
    "768": "Vec",
    "785": "varOmega",
    "1081": "25",
    "906": "dotsm",
    "892": "beth",
    "600": "sma",
    "20": "3",
    "1002": "arraycolsep",
    "29": "<",
    "287": "tar",
    "797": "mathord",
    "1048": "Ġex",
    "178": "dot",
    "645": "oo",
    "606": "bigwedge",
    "86": "u",
    "238": "ĠC",
    "848": "complement",
    "939": "vru",
    "204": "lambda",
    "320": "Ġ\\}",
    "977": "do",
    "988": "sure",
    "252": "ĠH",
    "462": "ect",
    "179": "Ġj",
    "1044": "mark",
    "213": "beta",
    "1170": "preccurlyeq",
    "471": "bigl",
    "807": "oslash",
    "573": "vee",
    "51": "R",
    "969": "doublebarwedge",
    "30": "=",
    "504": "numbe",
    "376": "mi",
    "1139": "noinde",
    "510": "ze",
    "233": "lon",
    "578": "leftarrow",
    "569": "tiny",
    "256": "Ġ5",
    "596": "Le",
    "685": "bigcap",
    "589": "lor",
    "916": "mathc",
    "667": "lce",
    "855": "\\#",
    "890": "vDa",
    "905": "coprod",
    "280": "ĠK",
    "511": "size",
    "580": "Vert",
    "1007": "ddag",
    "122": "Ġ0",
    "674": "back",
    "864": "mathstrut",
    "161": "Ġs",
    "678": "vdash",
    "947": "lrcorner",
    "1140": "owns",
    "1156": "curvearrow",
    "28": ";",
    "745": "bigtriangledown",
    "926": "lefteq",
    "760": "models",
    "1083": "\\/",
    "2": "[EOS]",
    "1026": "asymp",
    "183": "Ġ|",
    "782": "square",
    "583": "bigcup",
    "1147": "boxtimes",
    "85": "t",
    "653": "sb",
    "216": "delta",
    "330": "equiv",
    "1084": "ape",
    "815": "intercal",
    "1132": "textcircled",
    "518": "cfrac",
    "697": "varno",
    "538": "check",
    "118": "Ġ+",
    "492": "no",
    "876": "lesssim",
    "389": "laystyle",
    "123": "ar",
    "243": "ad",
    "1068": "footnotemark",
    "1129": "Ġ<$",
    "854": "nearrow",
    "129": "ft",
    "554": "ddots",
    "965": "hom",
    "169": "Ġ\\;",
    "1148": "boxed",
    "194": "array",
    "1143": "underrightarrow",
    "143": "am",
    "709": "ominus",
    "1091": "ly",
    "189": "bf",
    "201": "igma",
    "487": "over",
    "11": "*",
    "463": "parrow",
    "719": "prot",
    "881": "miter",
    "586": "sec",
    "371": "Ġ\\:",
    "153": "Ġ&",
    "704": "bigstar",
    "97": "¿",
    "679": "top",
    "234": "Ġv",
    "593": "il",
    "109": "Ġ(",
    "239": "cdot",
    "206": "ĠB",
    "999": "gtrapprox",
    "1146": "trianglelefteq",
    "260": "be",
    "445": "lus",
    "1093": "nda",
    "563": "lbrack",
    "537": "che",
    "42": "I",
    "649": "footnote",
    "788": "pounds",
    "832": "tw",
    "339": "Ġ\\{",
    "758": "dels",
    "1077": "blacksquare",
    "912": "nleftrightarrow",
    "631": "lap",
    "19": "2",
    "636": "arg",
    "917": "corne",
    "627": "ff",
    "380": "log",
    "729": "ule",
    "562": "lfloor",
    "1057": "approxeq",
    "694": "ru",
    "268": "na",
    "383": "vert",
    "656": "lies",
    "489": "mathsf",
    "99": "Ċ",
    "1042": "wline",
    "613": "lbrace",
    "190": "Ġg",
    "668": "rceil",
    "1137": "relax",
    "349": "bo",
    "670": "vphantom",
    "436": "Bigg",
    "61": "\\",
    "162": "pr",
    "891": "barwedge",
    "560": "inus",
    "496": "tri",
    "46": "M",
    "1105": "Ġ\\'",
    "315": "Ġw",
    "910": "LARGE",
    "895": "AR",
    "274": "De",
    "199": "bar",
    "584": "wp",
    "396": "wedge",
    "444": "biggr",
    "235": "sum",
    "567": "mathit",
    "641": "spa",
    "733": "okrightarrow",
    "461": "scriptstyle",
    "475": "maps",
    "531": "od",
    "1028": "grave",
    "454": "sub",
    "135": "Ġ.",
    "142": "right",
    "4": "\"",
    "131": "me",
    "64": "_",
    "312": "Ġ;",
    "381": "mid",
    "711": "ond",
    "1114": "rightsqu",
    "1067": "Leftarrow",
    "363": "wi",
    "483": "binom",
    "0": "[PAD]",
    "607": "arcsin",
    "932": "mathopen",
    "783": "pou",
    "735": "sharp",
    "706": "\\!",
    "642": "space",
    "705": "enspace",
    "22": "5",
    "417": "set",
    "830": "gcd",
    "426": "Ġ\\|",
    "231": "su",
    "257": "var",
    "866": "bigcirc",
    "147": "mu",
    "929": "Bigm",
    "76": "k",
    "1040": "lq",
    "227": "ĠF",
    "571": "lef",
    "484": "vdots",
    "177": "psi",
    "33": "@",
    "1075": "Arrowvert",
    "799": "cc",
    "976": "amal",
    "1000": "amalg",
    "373": "otimes",
    "831": "ohe",
    "856": "nce",
    "160": "Ġ4",
    "47": "N",
    "499": "cot",
    "155": "Ġp",
    "498": "Xi",
    "253": "lde",
    "796": "smile",
    "108": "Ġ)",
    "1095": "nmid",
    "225": "mega",
    "357": "nabla",
    "734": "hookrightarrow",
    "283": "ow",
    "284": "ĠJ",
    "886": "nulldelimiterspace",
    "437": "ce",
    "722": "varDelta",
    "913": "rsim",
    "1136": "retch",
    "568": "tin",
    "214": "ngle",
    "68": "c",
    "322": "Ġ7",
    "555": "io",
    "681": "varsigma",
    "430": "stack",
    "779": "surd",
    "7": "&",
    "507": "cap",
    "163": "Ġ~",
    "413": "tan",
    "466": "bject",
    "1125": "vartriangle",
    "173": "tial",
    "448": "biggl",
    "769": "ebox",
    "1009": "gra",
    "532": "down",
    "144": "eta",
    "710": "div",
    "156": "si",
    "111": "ra",
    "612": "mit",
    "652": "imp",
    "914": "rne",
    "482": "bin",
    "770": "kebox",
    "839": "comp",
    "1010": "gime",
    "1074": "verb",
    "930": "Biggm",
    "1090": "ice",
    "49": "P",
    "309": "rline",
    "899": "dskip",
    "990": "pmb",
    "1116": "arrayst",
    "70": "e",
    "1061": "circled",
    "644": "iiint",
    "530": "imath",
    "338": "Big",
    "38": "E",
    "17": "0",
    "1030": "joinrel",
    "972": "allowbreak",
    "1043": "Ġ14",
    "80": "o",
    "1060": "textsl",
    "1024": "skew",
    "1138": "overwithdelims",
    "493": "arc",
    "313": "dots",
    "490": "cup",
    "473": "oint",
    "59": "Z",
    "991": "cite",
    "159": "mathrm",
    "302": "rname",
    "310": "Lambda",
    "1165": "arraystretch",
    "557": "llet",
    "887": "Da",
    "291": "ĠW",
    "402": "ck",
    "105": "Ġ_",
    "1066": "atopwithdelims",
    "276": "Gamma",
    "896": "Di",
    "317": "big",
    "924": "Ġ\\]",
    "812": "inter",
    "1103": "ymath",
    "762": "Pr",
    "610": "overset",
    "1058": "diag",
    "465": "bj",
    "359": "yle",
    "1113": "leftrightharpoo",
    "1008": "ew",
    "974": "--",
    "528": "rbrace",
    "597": "ftrightarrow",
    "637": "underset",
    "267": "Ġ6",
    "739": "supseteq",
    "374": "bold",
    "14": "-",
    "464": "uparrow",
    "1100": "sho",
    "777": "Ġï¿½",
    "781": "are",
    "151": "Ġe",
    "559": "colon",
    "305": "lin",
    "983": "rk",
    "405": "ri",
    "508": "Righ",
    "834": "there",
    "517": "parallel",
    "1131": "perca",
    "918": "textnormal",
    "308": "pm",
    "425": "underline",
    "180": "Ġb",
    "141": "Ġa",
    "921": "roup",
    "958": "nright",
    "101": "Ġ",
    "960": "uph",
    "1163": "leftrightharpoons",
    "731": "hfill",
    "611": "rbrack",
    "470": "longrightarrow",
    "579": "Ve",
    "467": "pto",
    "356": "bla",
    "901": "Ġ@",
    "1099": "off",
    "60": "[",
    "801": "succ",
    "1003": "ensuremath",
    "1123": "varGamma",
    "998": "lgroup",
    "242": "hat",
    "366": "leq",
    "790": "ss",
    "609": "odot",
    "96": "½",
    "344": "cdots",
    "661": "tharpoo",
    "838": "varinjlim",
    "561": "Upsilon",
    "77": "l",
    "850": "thi",
    "1052": "rowvert",
    "377": "prox",
    "240": "epsilon",
    "617": "Ġ\\#",
    "226": "ĠD",
    "867": "smallskip",
    "664": "acute",
    "893": "eqno",
    "1079": "negthickspace",
    "524": "arrow",
    "625": "ptyset",
    "872": "less",
    "52": "S",
    "329": "equ",
    "973": "sideset",
    "513": "ne",
    "1172": "romannumeral",
    "400": "symbol",
    "399": "sym",
    "342": "\\{",
    "752": "box",
    "424": "script",
    "759": "ref",
    "520": "object",
    "343": "varepsilon",
    "1054": "black",
    "964": "sqcap",
    "188": "Ġq",
    "1111": "fter",
    "79": "n",
    "478": "lle",
    "993": "leftrightarrows",
    "780": "normal",
    "358": "exp",
    "209": "qu",
    "955": "dou",
    "9": "(",
    "844": "oheadrightarrow",
    "723": "notin",
    "948": "vrule",
    "772": "rd",
    "632": "lnot",
    "116": "fra",
    "1025": "lims",
    "882": "limiter",
    "553": "rfloor",
    "928": "varkappa",
    "172": "par",
    "512": "textrm",
    "1094": "nnu",
    "1161": "shortmid",
    "1005": "ch",
    "986": "Ġin",
    "869": "normalsize",
    "865": "suit",
    "187": "phi",
    "1050": "dotsi",
    "361": "zeta",
    "1015": "frame",
    "995": "Longleftarrow",
    "1104": "Ġ#",
    "255": "ĠQ",
    "1135": "cial",
    "873": "mathtt",
    "598": "Leftrightarrow",
    "411": "nde",
    "937": "swarrow",
    "680": "rightharpoo",
    "36": "C",
    "1155": "circledcirc",
    "237": "ĠV",
    "789": "ns",
    "370": "mathbb",
    "529": "textbf",
    "725": "lVert",
    "702": "overleftarrow",
    "601": "upsilon",
    "121": "ig",
    "994": "supsetneq",
    "263": "end",
    "220": "Ġ\\\\",
    "495": "floor",
    "810": "lg",
    "12": "+",
    "21": "4",
    "715": "ni",
    "552": "bu",
    "1027": "digamma",
    "669": "lceil",
    "126": "Ġi",
    "961": "wbre",
    "659": "ker",
    "677": "xrightarrow",
    "764": "ou",
    "149": "Ġk",
    "535": "scriptscriptstyle",
    "13": ",",
    "247": "rho",
    "175": "ime",
    "458": "boldmath",
    "212": "lo",
    "629": "nt",
    "1159": "ndafter",
    "931": "mathclose",
    "1055": "leqq",
    "1102": "wr",
    "497": "triangle",
    "15": ".",
    "18": "1",
    "630": "er",
    "849": "ca",
    "956": "hss",
    "431": "stackrel",
    "566": "Im",
    "525": "own",
    "1118": "interline",
    "1124": "varpropto",
    "825": "bumpeq",
    "414": "sc",
    "446": "oplus",
    "1073": "varliminf",
    "550": "exists",
    "409": "se",
    "254": "tilde",
    "72": "g",
    "841": "fore",
    "164": "pha",
    "749": "triangleleft",
    "292": "co",
    "84": "s",
    "628": "iff",
    "112": "Ġ=",
    "259": "ĠG",
    "515": "ralle",
    "970": "upharpoonright",
    "457": "ec",
    "521": "ĠObject",
    "82": "q",
    "713": "ddagger",
    "71": "f",
    "894": "vDash",
    "419": "widehat",
    "93": "|",
    "1037": "fill",
    "621": "breve",
    "136": "Ġ\\,",
    "506": "nonumber",
    "987": "arrayco",
    "1046": "inf",
    "1004": "asym",
    "1120": "ngeq",
    "181": "Ġf",
    "1059": "textsc",
    "742": "longmapsto",
    "809": "arrowvert",
    "923": "Ġ\\[",
    "261": "nd",
    "1033": "Ar",
    "824": "varprojlim",
    "650": "rlap",
    "48": "O",
    "1092": "md",
    "182": "lta",
    "1126": "varUpsilon",
    "368": "bigg",
    "967": "arpoonright",
    "53": "T",
    "543": "gg",
    "860": "cancel",
    "293": "mes",
    "648": "arpoo",
    "1098": "of",
    "1070": "subsetneqq",
    "390": "splaystyle",
    "885": "nulldelimiter",
    "398": "sy",
    "888": "hphantom",
    "941": "mathnormal",
    "806": "texttt",
    "1034": "Rrightarrow",
    "296": "ĠZ",
    "1014": "tch",
    "336": "kap",
    "791": "smi",
    "1013": "nleq",
    "883": "kern",
    "755": "jlim",
    "863": "ural",
    "732": "krightarrow",
    "406": "Th",
    "878": "llde",
    "447": "vartheta",
    "811": "Ġmm",
    "269": "vec",
    "1038": "hspace",
    "481": "cu",
    "432": "sinh",
    "793": "rightlef",
    "314": "cos",
    "818": "frown",
    "840": "textit",
    "1141": "veebar",
    "1035": "ae",
    "798": "rightleftharpoons",
    "37": "D",
    "835": "injlim",
    "418": "pt",
    "277": "pe",
    "491": "brace",
    "474": "ps",
    "502": "it",
    "74": "i",
    "81": "p",
    "684": "large",
    "174": "partial",
    "675": "tt",
    "100": "č",
    "703": "hf",
    "279": "infty",
    "622": "em",
    "639": "Box",
    "857": "ral",
    "527": "subseteq",
    "114": "čĊ",
    "915": "warrow",
    "1145": "backsimeq",
    "1032": "withdelims",
    "486": "leftrightarrow",
    "980": "hskip",
    "1051": "intop",
    "959": "nleftarrow",
    "833": "leme",
    "533": "he",
    "452": "fo",
    "572": "slash",
    "943": "rightleftarrow",
    "157": "rm",
    "1019": "ver",
    "802": "ftarrow",
    "761": "tag",
    "519": "Ġ--",
    "145": "ti",
    "476": "mapsto",
    "211": "Ġ/",
    "392": "meq",
    "94": "}",
    "171": "pi",
    "65": "`",
    "979": "group",
    "353": "dagger"
  },
  "special_tokens": {
    "bos_token_id": null,
    "eos_token_id": null,
    "pad_token_id": null
  },
  "vocab_size": 1175
}